74 0x000000000 262144
75 0x000040000 1024
56 0x000040400 262144
57 0x000080400 1024
44 0x000080800 147456
45 0x0000a4800 512
28 0x0000a4a00 131072
29 0x0000c4a00 2048
48 0x0000c5200 131072
49 0x0000e5200 1024
46 0x0000e5600 65536
47 0x0000f5600 2048
26 0x0000f5e00 65536
27 0x000105e00 2048
40 0x000106600 65536
41 0x000116600 2048
36 0x000116e00 65536
37 0x000126e00 512
30 0x000127000 65536
31 0x000137000 512
42 0x000137200 65536
43 0x000147200 512
12 0x000147400 36864
13 0x000150400 256
4 0x000150500 36864
5 0x000159500 256
22 0x000159600 32768
23 0x000161600 512
8 0x000161800 16384
9 0x000165800 1024
6 0x000165c00 16384
7 0x000169c00 1024
10 0x00016a000 16384
11 0x00016e000 256
16 0x00016e100 16384
17 0x000172100 256
88 0x000172200 2359296
89 0x0003b2200 2048
104 0x0003b2a00 1048576
105 0x0004b2a00 8192
100 0x0004b4a00 1048576
101 0x0005b4a00 2048
70 0x0005b5200 589824
71 0x000645200 1024
86 0x000645600 524288
87 0x0006c5600 2048
80 0x0006c5e00 262144
81 0x000705e00 1024
38 0x000706200 147456
39 0x00072a200 512
20 0x00072a400 16384
21 0x00072e400 1024
0 0x00072e800 10240
1 0x000731000 256
96 0x000731100 2359296
97 0x000971100 2048
98 0x000971900 1048576
99 0x000a71900 8192
94 0x000a73900 1048576
95 0x000b73900 2048
50 0x000b74100 589824
51 0x000c04100 1024
72 0x000c04500 262144
73 0x000c44500 4096
60 0x000c45500 262144
61 0x000c85500 4096
68 0x000c86500 262144
69 0x000cc6500 1024
24 0x000cc6900 147456
25 0x000cea900 512
14 0x000ceab00 16384
15 0x000ceeb00 1024
2 0x000ceef00 4096
3 0x000ceff00 256
102 0x000cf0000 2359296
103 0x000f30000 2048
90 0x000f30800 1048576
91 0x001030800 8192
82 0x001032800 589824
83 0x0010c2800 1024
64 0x0010c2c00 589824
65 0x001152c00 1024
58 0x001153000 589824
59 0x0011e3000 1024
84 0x0011e3400 262144
85 0x001223400 4096
52 0x001224400 262144
53 0x001264400 4096
62 0x001265400 262144
63 0x0012a5400 1024
18 0x0012a5800 36864
19 0x0012ae800 256
92 0x0012ae900 2097152
93 0x0014ae900 8192
106 0x0014b0900 2048000
107 0x0016a4900 4032
76 0x0016a58c0 589824
77 0x0017358c0 1024
54 0x001735cc0 524288
55 0x0017b5cc0 4096
66 0x0017b6cc0 262144
67 0x0017f6cc0 4096
78 0x0017f7cc0 262144
79 0x001837cc0 4096
32 0x001838cc0 147456
33 0x00185ccc0 512
34 0x00185cec0 65536
35 0x00186cec0 2048